memory_initialization_radix=16;
memory_initialization_vector=00ff00ff0001ff00ff 010000010001ff0100 00ffff00ff00000000 ff0101ff000101ff00 00ffff0100000001ff 000000ff00000101ff 01ffff01010101ff01 ffff0000ffff0101ff 01ffff01010000ff00 ffffff01000001ffff 000001ffff0000ff01 010001010001010101 01010100010100ffff 010100000001ffffff ff00ff00000101ff00 ff0000ff01ff00ff01 0101ffffff00ff0100 00ff01010100000001 00ff00ffff00000000 0000ffffffff01ff00 00ff00010000010100 ff0101ffff0001ff00 0001ffffff010000ff ffff00ffff01ff01ff ff01ff010100ff0000 0100ff0101ffff0001 01ff0100ff0100ff01 0100010101010100ff ffffffffff00010101 ffff00010001010100 ffff000101ff010101 01010001ffff0101ff;
